unsigned char g_model[] = {
  0x1c, 0x00, 0x00, 0x00, 0x54, 0x46, 0x4c, 0x33, 0x14, 0x00, 0x20, 0x00,
  0x1c, 0x00, 0x18, 0x00, 0x14, 0x00, 0x10, 0x00, 0x0c, 0x00, 0x00, 0x00,
  0x08, 0x00, 0x04, 0x00, 0x14, 0x00, 0x00, 0x00, 0x1c, 0x00, 0x00, 0x00,
  0x1c, 0x00, 0x00, 0x00, 0x4c, 0x00, 0x00, 0x00, 0x88, 0x0b, 0x00, 0x00,
  0x98, 0x0b, 0x00, 0x00, 0xd8, 0x1a, 0x00, 0x00, 0x03, 0x00, 0x00, 0x00,
  0x00, 0x00, 0x00, 0x00, 0x01, 0x00, 0x00, 0x00, 0x0c, 0x00, 0x00, 0x00,
  0x08, 0x00, 0x0c, 0x00, 0x08, 0x00, 0x04, 0x00, 0x08, 0x00, 0x00, 0x00,
  0x13, 0x00, 0x00, 0x00, 0x04, 0x00, 0x00, 0x00, 0x13, 0x00, 0x00, 0x00,
  0x6d, 0x69, 0x6e, 0x5f, 0x72, 0x75, 0x6e, 0x74, 0x69, 0x6d, 0x65, 0x5f,
  0x76, 0x65, 0x72, 0x73, 0x69, 0x6f, 0x6e, 0x00, 0x14, 0x00, 0x00, 0x00,
  0x38, 0x0b, 0x00, 0x00, 0x30, 0x0b, 0x00, 0x00, 0x18, 0x0b, 0x00, 0x00,
  0x48, 0x0a, 0x00, 0x00, 0xf8, 0x09, 0x00, 0x00, 0xe8, 0x05, 0x00, 0x00,
  0x98, 0x05, 0x00, 0x00, 0x88, 0x01, 0x00, 0x00, 0x38, 0x01, 0x00, 0x00,
  0x98, 0x00, 0x00, 0x00, 0x64, 0x00, 0x00, 0x00, 0x5c, 0x00, 0x00, 0x00,
  0x54, 0x00, 0x00, 0x00, 0x4c, 0x00, 0x00, 0x00, 0x44, 0x00, 0x00, 0x00,
  0x3c, 0x00, 0x00, 0x00, 0x34, 0x00, 0x00, 0x00, 0x2c, 0x00, 0x00, 0x00,
  0x24, 0x00, 0x00, 0x00, 0x04, 0x00, 0x00, 0x00, 0x86, 0xf4, 0xff, 0xff,
  0x04, 0x00, 0x00, 0x00, 0x10, 0x00, 0x00, 0x00, 0x31, 0x2e, 0x31, 0x34,
  0x2e, 0x30, 0x00, 0x00, 0x00, 0x00, 0x00, 0x00, 0x00, 0x00, 0x00, 0x00,
  0xa4, 0xe6, 0xff, 0xff, 0xa8, 0xe6, 0xff, 0xff, 0xac, 0xe6, 0xff, 0xff,
  0xb0, 0xe6, 0xff, 0xff, 0xb4, 0xe6, 0xff, 0xff, 0xb8, 0xe6, 0xff, 0xff,
  0xbc, 0xe6, 0xff, 0xff, 0xc0, 0xe6, 0xff, 0xff, 0xc2, 0xf4, 0xff, 0xff,
  0x04, 0x00, 0x00, 0x00, 0x24, 0x00, 0x00, 0x00, 0x44, 0x00, 0x00, 0x00,
  0xe1, 0x00, 0x00, 0x00, 0x0a, 0xff, 0xff, 0xff, 0x34, 0xff, 0xff, 0xff,
  0x17, 0xff, 0xff, 0xff, 0xe4, 0xfe, 0xff, 0xff, 0x89, 0xff, 0xff, 0xff,
  0x45, 0x00, 0x00, 0x00, 0x36, 0x00, 0x00, 0x00, 0xf2, 0xf4, 0xff, 0xff,
  0x04, 0x00, 0x00, 0x00, 0x90, 0x00, 0x00, 0x00, 0xe4, 0xc8, 0x0d, 0x07,
  0x20, 0xf0, 0xe5, 0x48, 0xd9, 0x00, 0xd1, 0x0d, 0xd8, 0xe7, 0xfb, 0xdb,
  0xf0, 0xf7, 0xf2, 0xf6, 0x01, 0x03, 0xf1, 0xfb, 0x08, 0x05, 0xf5, 0xef,
  0x0b, 0xd9, 0xff, 0xed, 0xec, 0x8a, 0xf6, 0xf5, 0x01, 0x14, 0xfa, 0xc5,
  0xeb, 0xee, 0x81, 0x0c, 0xa5, 0x9e, 0xfb, 0xd0, 0xe0, 0x0c, 0xdd, 0xfe,
  0x19, 0x04, 0xfc, 0x00, 0x18, 0xdc, 0xf9, 0x07, 0xe1, 0x04, 0x03, 0x00,
  0xde, 0xe6, 0xe6, 0x05, 0xd6, 0x13, 0x1b, 0x04, 0x00, 0x1a, 0x0f, 0xef,
  0xb9, 0x0a, 0xf7, 0xc9, 0xf7, 0x08, 0x14, 0xf4, 0xf3, 0x23, 0xec, 0xf4,
  0xe1, 0x09, 0xd8, 0xf0, 0x08, 0xf6, 0x1c, 0xf6, 0xf9, 0x02, 0x13, 0xeb,
  0xfe, 0xff, 0x15, 0x0a, 0xf2, 0x18, 0xe6, 0xef, 0x08, 0x04, 0x0d, 0x0d,
  0x07, 0x0a, 0xee, 0x12, 0x14, 0xfa, 0x1a, 0xea, 0xf2, 0xe8, 0x0b, 0xea,
  0xff, 0xe9, 0xea, 0xe0, 0x18, 0xf2, 0x13, 0x1b, 0xfa, 0x09, 0xeb, 0xd5,
  0xf5, 0xdb, 0x05, 0x13, 0xe5, 0xd8, 0xe8, 0xed, 0x8e, 0xf5, 0xff, 0xff,
  0x04, 0x00, 0x00, 0x00, 0x40, 0x00, 0x00, 0x00, 0x47, 0x00, 0x00, 0x00,
  0xb0, 0xff, 0xff, 0xff, 0xc7, 0xff, 0xff, 0xff, 0xec, 0xff, 0xff, 0xff,
  0x17, 0x00, 0x00, 0x00, 0xa6, 0xff, 0xff, 0xff, 0xe5, 0xff, 0xff, 0xff,
  0x56, 0x00, 0x00, 0x00, 0xb7, 0xff, 0xff, 0xff, 0xec, 0xff, 0xff, 0xff,
  0x25, 0x00, 0x00, 0x00, 0xf2, 0xff, 0xff, 0xff, 0xe8, 0xff, 0xff, 0xff,
  0xf8, 0xff, 0xff, 0xff, 0x94, 0xff, 0xff, 0xff, 0xfc, 0xff, 0xff, 0xff,
  0xda, 0xf5, 0xff, 0xff, 0x04, 0x00, 0x00, 0x00, 0x00, 0x04, 0x00, 0x00,
  0x50, 0xbf, 0xf2, 0x07, 0xea, 0x08, 0x14, 0xf2, 0xf0, 0x03, 0x43, 0xd4,
  0xbc, 0x12, 0xfb, 0x22, 0x0b, 0x17, 0x20, 0xbb, 0xfb, 0xda, 0xd5, 0xf1,
  0xfc, 0xf0, 0xb7, 0xdd, 0x08, 0x0c, 0xbe, 0x1b, 0x3b, 0xd0, 0xfb, 0x1f,
  0x01, 0x0b, 0xf7, 0xdc, 0xd7, 0x06, 0x25, 0xf0, 0xbb, 0x31, 0xec, 0x16,
  0xfe, 0x09, 0x1a, 0xd3, 0xe9, 0xbd, 0x03, 0xe0, 0xfb, 0xfe, 0xec, 0xda,
  0xf4, 0x1b, 0xcf, 0x10, 0x14, 0x0a, 0x1a, 0xe1, 0x02, 0xf0, 0x06, 0x2f,
  0xd9, 0xf5, 0xcd, 0xeb, 0x13, 0xf4, 0xf4, 0x05, 0xf2, 0x15, 0x0d, 0xd3,
  0xf4, 0x00, 0x0c, 0x24, 0x16, 0x3d, 0x24, 0xfa, 0xf7, 0x24, 0x05, 0xf3,
  0x1b, 0x07, 0x04, 0xf7, 0xfe, 0x0c, 0xfe, 0x34, 0xdb, 0x05, 0xec, 0xef,
  0x0f, 0xf8, 0x08, 0xe8, 0xf0, 0x05, 0x02, 0x1f, 0xef, 0xee, 0x11, 0x12,
  0x11, 0x4a, 0x14, 0xf2, 0xea, 0x1c, 0x19, 0xf1, 0x5a, 0xf6, 0x16, 0xfe,
  0x12, 0xed, 0x11, 0x48, 0xef, 0x27, 0x44, 0xad, 0xd5, 0x08, 0xf3, 0x39,
  0x09, 0x09, 0x13, 0x03, 0xf4, 0xfa, 0xf9, 0xea, 0xf2, 0xe7, 0x25, 0x00,
  0xf7, 0xe1, 0xbc, 0x17, 0x57, 0x07, 0x00, 0x01, 0x29, 0x03, 0x10, 0x05,
  0xe3, 0x24, 0x2b, 0x00, 0xe6, 0x0c, 0x03, 0x25, 0xfa, 0x08, 0x08, 0xe4,
  0xff, 0x03, 0x09, 0xe4, 0xe4, 0xef, 0x18, 0xf2, 0xff, 0xfa, 0xee, 0x06,
  0xfa, 0xdf, 0xf7, 0xe2, 0xed, 0xf4, 0xf8, 0xff, 0xdf, 0xeb, 0xf2, 0x12,
  0xf6, 0xfb, 0xdf, 0xee, 0xdf, 0xf0, 0xdd, 0x0b, 0xfe, 0xe8, 0x02, 0xfd,
  0xde, 0xe9, 0x14, 0x0e, 0xd9, 0x05, 0xed, 0xe6, 0xe5, 0xfa, 0xf8, 0x05,
  0xf4, 0xdf, 0x12, 0xfd, 0xee, 0xd6, 0xf0, 0x17, 0x04, 0xe6, 0x0a, 0x06,
  0xd4, 0xf3, 0xec, 0xf8, 0x17, 0xf7, 0xfc, 0xfc, 0x13, 0x18, 0xd6, 0x10,
  0xf8, 0x0c, 0x0b, 0xf4, 0x87, 0xc5, 0xdc, 0xea, 0xe0, 0xff, 0xd4, 0xb2,
  0xf3, 0xf7, 0xbd, 0xcf, 0xe6, 0xff, 0x3b, 0xf8, 0xee, 0xf7, 0x0e, 0x49,
  0xee, 0x0a, 0xf8, 0x10, 0x08, 0x19, 0xe6, 0x15, 0xe7, 0x54, 0x31, 0xee,
  0xcd, 0xac, 0x09, 0x06, 0x0e, 0xfc, 0xfd, 0xe2, 0x0b, 0x00, 0x05, 0x0c,
  0xdf, 0xfd, 0x36, 0xdf, 0xf9, 0x07, 0x1a, 0x3d, 0xef, 0x1c, 0xfe, 0x14,
  0x0f, 0x2b, 0x18, 0xe4, 0xe0, 0x28, 0x15, 0xd7, 0x20, 0x18, 0x14, 0xee,
  0xef, 0xe4, 0x1b, 0x20, 0xc3, 0x17, 0xda, 0xee, 0x0b, 0xcc, 0xec, 0x0d,
  0xf0, 0x08, 0xf8, 0x06, 0xf9, 0xdf, 0x04, 0x07, 0xe5, 0xf0, 0xee, 0x15,
  0xf6, 0xe6, 0xe3, 0x01, 0x1b, 0x07, 0x18, 0xc5, 0xf1, 0xf0, 0x2a, 0x00,
  0xce, 0x21, 0xc6, 0xe6, 0x02, 0xcf, 0xfb, 0xf0, 0x06, 0xf7, 0x05, 0xfe,
  0xe7, 0xf3, 0xf9, 0xff, 0xd7, 0x14, 0xef, 0x0a, 0xf5, 0xe4, 0x10, 0xfd,
  0xf0, 0xf7, 0xe0, 0xf3, 0xf7, 0xc7, 0x0f, 0xfc, 0xee, 0xe4, 0x03, 0xe6,
  0xfd, 0xce, 0x16, 0xe2, 0xe8, 0xe0, 0x01, 0xff, 0xed, 0xd6, 0x10, 0xd5,
  0xf9, 0x08, 0xd4, 0x21, 0xd4, 0xd4, 0x0a, 0x0c, 0xee, 0xdd, 0x22, 0xdd,
  0xf7, 0xd3, 0x18, 0xe7, 0xe6, 0xf5, 0xfe, 0xee, 0xfc, 0x10, 0xf1, 0x05,
  0xf7, 0xda, 0xef, 0xf8, 0xf4, 0xe4, 0xed, 0x01, 0x11, 0x15, 0x0d, 0xf5,
  0xde, 0xfa, 0xfd, 0xdf, 0xec, 0xd4, 0xf7, 0xfe, 0xfe, 0xfb, 0x0a, 0x3b,
  0x18, 0xfb, 0x0a, 0xe6, 0xce, 0x06, 0x0f, 0x20, 0xa1, 0xe1, 0xf0, 0x31,
  0x28, 0x0d, 0xa3, 0xcb, 0xdf, 0xd2, 0x04, 0x04, 0xb3, 0x2f, 0x09, 0xdd,
  0xf2, 0xdd, 0x0f, 0x0a, 0x0e, 0x13, 0x17, 0x06, 0x13, 0x05, 0xfe, 0xfe,
  0xcb, 0x07, 0x0c, 0xf9, 0x90, 0xd7, 0xeb, 0x22, 0xfb, 0x03, 0x94, 0xed,
  0xed, 0xe4, 0xf0, 0x06, 0xad, 0x06, 0x1e, 0xc0, 0x02, 0xed, 0xb5, 0x04,
  0xf6, 0xdc, 0x07, 0xc7, 0x1d, 0xe8, 0xef, 0xf6, 0xea, 0xe0, 0x0e, 0xc6,
  0x0e, 0x06, 0x07, 0x0e, 0x19, 0x00, 0xfb, 0xc9, 0xdf, 0x07, 0xf5, 0xc6,
  0xd8, 0xf1, 0x03, 0xfc, 0x07, 0x11, 0xf4, 0xfa, 0xcd, 0xf0, 0xdc, 0xd2,
  0xff, 0x06, 0x01, 0xf6, 0xf8, 0xd8, 0xfd, 0xf8, 0x22, 0x09, 0x01, 0x31,
  0xf2, 0xd5, 0x13, 0xd7, 0xd9, 0x1d, 0xdf, 0xfc, 0xcd, 0xe4, 0x1c, 0x25,
  0xef, 0x0d, 0x22, 0xf8, 0x26, 0xd7, 0xc1, 0x38, 0x16, 0xe7, 0x1b, 0xfd,
  0xf5, 0xdf, 0xd9, 0x2d, 0x05, 0xf6, 0xe6, 0x13, 0x1e, 0x15, 0x01, 0xeb,
  0x03, 0xf9, 0x2b, 0x13, 0x11, 0xca, 0x06, 0x04, 0xee, 0x14, 0x22, 0xf3,
  0x3a, 0xe8, 0xc7, 0x1e, 0x01, 0xec, 0x06, 0xfc, 0xfb, 0xd6, 0x00, 0x0f,
  0xf7, 0x07, 0xf9, 0x03, 0x35, 0x22, 0x0a, 0xd9, 0xfc, 0x02, 0x2f, 0xfc,
  0x02, 0xdf, 0x0b, 0x17, 0xf8, 0xda, 0xaa, 0x04, 0xeb, 0xf8, 0xdd, 0x81,
  0xee, 0xf5, 0x07, 0xff, 0xe3, 0x05, 0x0e, 0xcc, 0xfd, 0x21, 0x20, 0xdb,
  0x22, 0xe1, 0x00, 0x05, 0x32, 0x16, 0xe8, 0xf7, 0xfe, 0x3e, 0x00, 0x0b,
  0x0a, 0xd3, 0xdb, 0x13, 0xd0, 0x10, 0xdb, 0xe8, 0xf9, 0x01, 0x16, 0xef,
  0xe4, 0x10, 0xf6, 0x13, 0x14, 0x05, 0x35, 0xdc, 0x29, 0xdd, 0xec, 0xe5,
  0x38, 0x1d, 0x15, 0xc7, 0x0c, 0x1c, 0xe2, 0x0f, 0x20, 0xfe, 0x0d, 0xd2,
  0x16, 0x02, 0xe1, 0x0f, 0xed, 0x06, 0x03, 0x07, 0xf6, 0xd2, 0xe8, 0x04,
  0x0d, 0xca, 0x17, 0xeb, 0xf6, 0xe4, 0xde, 0x07, 0xe9, 0xf4, 0xed, 0x03,
  0xf1, 0x04, 0xdb, 0xed, 0xdf, 0xe1, 0xdd, 0x08, 0xfb, 0x0d, 0xf0, 0xfb,
  0xe6, 0x17, 0xdb, 0xf8, 0xed, 0xf4, 0x12, 0xea, 0x0e, 0xe1, 0x08, 0xf0,
  0xff, 0xdc, 0xfd, 0xfc, 0xfd, 0xe1, 0x0a, 0xfa, 0x03, 0x09, 0xeb, 0xf1,
  0xd7, 0x67, 0x22, 0x1c, 0x0d, 0x0f, 0xe4, 0x0a, 0x0a, 0x06, 0xef, 0x36,
  0x3a, 0xfa, 0xe1, 0xcb, 0xe9, 0xf0, 0xdd, 0xd7, 0xf1, 0xfb, 0x1c, 0xe2,
  0x06, 0xf7, 0xfa, 0x0b, 0x00, 0xd5, 0xfb, 0x01, 0xc1, 0x4a, 0x43, 0xfd,
  0x0b, 0x07, 0xe5, 0x1b, 0x06, 0xf1, 0xec, 0x21, 0x5d, 0x08, 0xc6, 0x04,
  0xdf, 0xed, 0xd2, 0xe2, 0xce, 0x06, 0x0c, 0x27, 0x07, 0xfc, 0xf8, 0x2e,
  0x0e, 0xd9, 0x06, 0x0f, 0x16, 0xe8, 0x16, 0xc9, 0x2d, 0xb3, 0xdd, 0x32,
  0xd3, 0xd2, 0x21, 0xec, 0x02, 0xca, 0x03, 0x2c, 0x0f, 0x1f, 0xf7, 0x2e,
  0x26, 0xec, 0x06, 0xe7, 0xea, 0x1a, 0x20, 0xf4, 0x10, 0xe1, 0x19, 0xd9,
  0x14, 0x12, 0xf9, 0xdc, 0x46, 0xee, 0xe5, 0x38, 0xc6, 0x08, 0xff, 0xe9,
  0xe3, 0xde, 0x39, 0x00, 0x11, 0x14, 0xd7, 0x3c, 0x13, 0x13, 0x08, 0xf4,
  0x05, 0x04, 0x17, 0x00, 0x08, 0xf8, 0xff, 0xed, 0x37, 0x25, 0x08, 0xc0,
  0xdf, 0xd8, 0x39, 0x0f, 0xd8, 0xfd, 0xf6, 0xf2, 0x07, 0xe9, 0x04, 0x0f,
  0xf4, 0xf9, 0xea, 0x00, 0xea, 0xe2, 0x02, 0xf5, 0xfb, 0xf2, 0xf5, 0x15,
  0x03, 0xde, 0x32, 0xfc, 0x18, 0x01, 0x07, 0xcc, 0x17, 0xe8, 0x32, 0x26,
  0xc5, 0x08, 0xe9, 0x02, 0x0f, 0xdd, 0xf7, 0xf1, 0x04, 0x04, 0x0e, 0x1d,
  0x04, 0x00, 0x02, 0x0b, 0xee, 0x01, 0x01, 0x25, 0x05, 0xde, 0xf8, 0xf3,
  0x00, 0x02, 0x15, 0xf9, 0x36, 0xd0, 0xd7, 0x1e, 0xf8, 0xf1, 0x29, 0xe9,
  0xf6, 0x08, 0xd2, 0x23, 0xff, 0x08, 0x07, 0x02, 0xe0, 0x15, 0x19, 0xd2,
  0xec, 0x24, 0x2d, 0x05, 0x09, 0xe0, 0x10, 0x23, 0x0f, 0xfd, 0x0d, 0xd9,
  0x2c, 0xbb, 0xd7, 0x07, 0xee, 0xf1, 0x12, 0xbf, 0xfc, 0xc0, 0xde, 0xfe,
  0x14, 0x03, 0x00, 0x1b, 0xe8, 0x09, 0x05, 0xfc, 0xdd, 0x1f, 0x22, 0xf1,
  0x02, 0xe4, 0xf6, 0x0f, 0xe6, 0xf9, 0xff, 0xff, 0x04, 0x00, 0x00, 0x00,
  0x40, 0x00, 0x00, 0x00, 0xa8, 0xff, 0xff, 0xff, 0x9f, 0xff, 0xff, 0xff,
  0x4b, 0x00, 0x00, 0x00, 0x28, 0x00, 0x00, 0x00, 0x48, 0x00, 0x00, 0x00,
  0x3e, 0x00, 0x00, 0x00, 0x6e, 0xff, 0xff, 0xff, 0x8c, 0x00, 0x00, 0x00,
  0xfe, 0xff, 0xff, 0xff, 0x69, 0xff, 0xff, 0xff, 0xeb, 0xff, 0xff, 0xff,
  0x6d, 0xff, 0xff, 0xff, 0xdd, 0xff, 0xff, 0xff, 0x22, 0x00, 0x00, 0x00,
  0x4c, 0x00, 0x00, 0x00, 0xdf, 0xff, 0xff, 0xff, 0x32, 0xfa, 0xff, 0xff,
  0x04, 0x00, 0x00, 0x00, 0x00, 0x04, 0x00, 0x00, 0xfa, 0xf8, 0xef, 0x0e,
  0x35, 0xe9, 0x35, 0x00, 0x96, 0x3a, 0x0d, 0xf6, 0x60, 0x05, 0xf0, 0xf0,
  0xfc, 0xe1, 0x0e, 0x09, 0xba, 0x28, 0x3b, 0xfd, 0x81, 0xfb, 0xe0, 0xf0,
  0x09, 0xfe, 0xd0, 0x37, 0x0c, 0x02, 0x38, 0x48, 0xf7, 0x29, 0x03, 0xfb,
  0xba, 0xef, 0x0a, 0xae, 0x35, 0x46, 0xe6, 0x2a, 0xfa, 0x1a, 0x47, 0x0b,
  0xfe, 0x11, 0x4d, 0xfc, 0x5a, 0x09, 0x2c, 0x0e, 0x42, 0xf0, 0xf9, 0xe7,
  0x06, 0x52, 0x32, 0xf4, 0xf5, 0x0f, 0xd9, 0xf4, 0xfc, 0xbf, 0xc0, 0xd6,
  0x52, 0x02, 0xd6, 0x2b, 0xdc, 0xec, 0x22, 0x10, 0xd9, 0xeb, 0xee, 0xe8,
  0xf6, 0x09, 0xe3, 0xd5, 0xea, 0xc6, 0x02, 0x7f, 0xdb, 0xc7, 0x30, 0xf4,
  0xd2, 0x00, 0x46, 0xf5, 0xfc, 0xbe, 0xf4, 0xe4, 0x29, 0xda, 0xb1, 0x24,
  0x1a, 0xe9, 0x21, 0x2e, 0xc8, 0x11, 0x51, 0x23, 0x15, 0x1f, 0x17, 0xe9,
  0x27, 0x20, 0x17, 0xe2, 0xf1, 0x17, 0x34, 0x0f, 0xfb, 0x12, 0xdc, 0xf7,
  0x10, 0xef, 0xd5, 0xf7, 0xca, 0xb6, 0xf4, 0x4b, 0xf1, 0x2b, 0xf4, 0x28,
  0xf0, 0xe5, 0xd7, 0xed, 0xee, 0xcb, 0xfd, 0x00, 0xfa, 0xce, 0x02, 0xdc,
  0xf1, 0x23, 0x24, 0x03, 0x10, 0x04, 0xc4, 0xe1, 0x01, 0x23, 0x03, 0x19,
  0x81, 0x97, 0x00, 0xae, 0xae, 0x06, 0x8d, 0xfb, 0xba, 0x24, 0x18, 0xcc,
  0xec, 0x98, 0xd2, 0x08, 0xde, 0x9b, 0xff, 0x73, 0xf6, 0x0f, 0xd1, 0xde,
  0xf5, 0x28, 0x0c, 0x25, 0x0d, 0x39, 0x07, 0xcc, 0xa8, 0x21, 0xab, 0xad,
  0x14, 0xf3, 0xd7, 0x2a, 0xc3, 0xe3, 0xed, 0x05, 0x00, 0xc8, 0xd8, 0xe9,
  0xd8, 0x13, 0x98, 0xac, 0x11, 0xf0, 0xfd, 0xd8, 0xda, 0xec, 0xf3, 0x10,
  0xf2, 0xb1, 0xfc, 0xc1, 0xf4, 0x04, 0x81, 0xaa, 0x06, 0xbd, 0xf9, 0xf3,
  0xef, 0x19, 0x13, 0xe3, 0xcf, 0xdd, 0x28, 0xb4, 0xfb, 0xfd, 0x96, 0xa3,
  0xaa, 0x0f, 0xca, 0x38, 0x02, 0xe6, 0x31, 0x81, 0xde, 0x28, 0xf2, 0xfc,
  0xf4, 0xe6, 0x01, 0x0f, 0xc4, 0xd6, 0xdb, 0xf3, 0x05, 0xdd, 0x2e, 0xc2,
  0xca, 0x12, 0x02, 0xe7, 0xca, 0xe1, 0xfa, 0xeb, 0x1e, 0xaf, 0xeb, 0xbf,
  0xdd, 0xf8, 0x75, 0x21, 0x22, 0x33, 0x33, 0x0a, 0xad, 0xdf, 0x09, 0x07,
  0x1c, 0xdd, 0xef, 0x0c, 0xf6, 0xe0, 0x76, 0xfc, 0x12, 0x06, 0x25, 0xfc,
  0xe1, 0xf5, 0x0c, 0x13, 0xd5, 0xd8, 0xdd, 0x08, 0xe1, 0x19, 0x34, 0x11,
  0x0c, 0xd0, 0x29, 0xfd, 0xcc, 0x22, 0x42, 0xc3, 0xf1, 0xed, 0xbe, 0x26,
  0xbc, 0xee, 0x38, 0x11, 0x11, 0xde, 0x0f, 0xfa, 0x28, 0xc1, 0x27, 0xb0,
  0x10, 0x04, 0xb8, 0x04, 0xcc, 0xda, 0xed, 0xf2, 0xf8, 0xed, 0xd2, 0x03,
  0xfa, 0xd6, 0x0d, 0x81, 0xd5, 0x0d, 0x9d, 0x07, 0xd8, 0xf5, 0x2a, 0x47,
  0xd4, 0x97, 0xda, 0x0a, 0xc6, 0xdc, 0xf9, 0x0a, 0x0c, 0xca, 0xe2, 0x15,
  0xdd, 0x06, 0xfb, 0x00, 0xdb, 0x97, 0xf9, 0x24, 0x37, 0xfa, 0xcc, 0xd9,
  0x26, 0xff, 0x48, 0xea, 0x0e, 0xf4, 0x25, 0x02, 0xe9, 0xb4, 0xfc, 0x0b,
  0x36, 0xe6, 0x48, 0x02, 0x01, 0xfc, 0x06, 0xdf, 0x13, 0x26, 0xcf, 0xfd,
  0xef, 0x35, 0xe1, 0xf3, 0x2d, 0x38, 0xe9, 0xfe, 0xe9, 0x07, 0x16, 0x30,
  0xed, 0x3f, 0xec, 0xff, 0x18, 0xe7, 0x18, 0xcd, 0x7f, 0x20, 0x39, 0xc1,
  0xb6, 0x03, 0xe0, 0xf1, 0xcf, 0xf7, 0xdc, 0xb9, 0xdf, 0x0f, 0x4a, 0xf8,
  0x65, 0xee, 0x1e, 0xd5, 0xe6, 0x28, 0xd1, 0xd3, 0x39, 0x3c, 0x81, 0xa4,
  0x41, 0x18, 0xd9, 0x4a, 0xd9, 0x04, 0xf3, 0x7a, 0xd9, 0x0f, 0x60, 0x0f,
  0xe0, 0x05, 0xc6, 0xcf, 0xfb, 0xf1, 0x35, 0x20, 0xe8, 0xfe, 0xfa, 0x40,
  0xb3, 0x05, 0x11, 0x02, 0x56, 0x1d, 0xc0, 0xe4, 0xf8, 0x03, 0x18, 0xc6,
  0xe3, 0x34, 0xfe, 0xa2, 0xfd, 0x03, 0xfa, 0x3b, 0xd5, 0xf7, 0xfb, 0x0b,
  0x12, 0xf7, 0x12, 0xdd, 0xee, 0xbd, 0x20, 0x59, 0x81, 0xe5, 0x2f, 0xf2,
  0x82, 0x04, 0x42, 0xfe, 0xf8, 0x15, 0xe5, 0x02, 0xe0, 0xde, 0xf4, 0xc4,
  0xad, 0xfe, 0x1a, 0xb0, 0xdb, 0x18, 0x52, 0xea, 0x42, 0x07, 0xe6, 0x58,
  0xcf, 0x1e, 0xef, 0xfa, 0x08, 0x0f, 0xfd, 0xed, 0xb6, 0x0d, 0x31, 0x01,
  0xfe, 0xc5, 0x11, 0x17, 0xb7, 0xec, 0x13, 0x4f, 0x1c, 0x04, 0xe2, 0x10,
  0xa7, 0xf1, 0xfd, 0xfe, 0xfd, 0xd3, 0xef, 0xe3, 0x0e, 0xe7, 0xec, 0xef,
  0xee, 0xfa, 0x42, 0xf3, 0xe3, 0x22, 0x0a, 0x12, 0x0e, 0x09, 0x0e, 0xdf,
  0x35, 0x10, 0xdc, 0x81, 0x03, 0x01, 0xee, 0xfd, 0xfb, 0xe6, 0x04, 0xfa,
  0xf7, 0xdb, 0x12, 0x10, 0x2c, 0xfb, 0xf1, 0x1b, 0x2d, 0x02, 0x14, 0x0d,
  0xdf, 0x27, 0xec, 0x04, 0xe9, 0xe8, 0xda, 0xda, 0xec, 0x12, 0xfe, 0x1a,
  0x00, 0x1e, 0xb0, 0xc0, 0xc6, 0x00, 0x1a, 0xff, 0x6b, 0xec, 0xf1, 0xf7,
  0xef, 0xf3, 0x3d, 0xb0, 0xfc, 0xf8, 0x81, 0xf5, 0xdb, 0xdf, 0x22, 0xe8,
  0xf8, 0xed, 0xd5, 0x36, 0x9a, 0xeb, 0x07, 0xdf, 0x18, 0xee, 0x88, 0xf4,
  0xc7, 0xf7, 0x00, 0xf8, 0xc6, 0xef, 0xde, 0x0a, 0xd0, 0xcd, 0x3b, 0xf4,
  0x0d, 0xe8, 0xac, 0xf1, 0x0f, 0xd8, 0x0c, 0xf2, 0xb8, 0xfe, 0x17, 0x1c,
  0xf8, 0xff, 0x11, 0xd2, 0xa0, 0xc3, 0x8f, 0x0a, 0x04, 0xc4, 0xdf, 0xf0,
  0x0f, 0xb8, 0xfa, 0xba, 0x0a, 0xa9, 0x19, 0x81, 0xe7, 0xf2, 0xaf, 0x27,
  0x1f, 0x3d, 0xc7, 0x40, 0xf5, 0x31, 0x3c, 0x18, 0xd7, 0x35, 0xfd, 0xc8,
  0x91, 0x0a, 0xe7, 0xc9, 0xef, 0xc7, 0xbb, 0xf5, 0xcd, 0x41, 0xc5, 0x0e,
  0x05, 0xe8, 0x5a, 0xb8, 0xca, 0xe3, 0x3d, 0x15, 0xf1, 0x1a, 0xf8, 0xe5,
  0x37, 0x19, 0x24, 0x26, 0x1c, 0x5e, 0x24, 0xf0, 0xf6, 0x50, 0x02, 0x0a,
  0x03, 0xd4, 0x23, 0x02, 0xf6, 0xfe, 0x28, 0x3c, 0x3b, 0x08, 0x09, 0xfd,
  0xc0, 0xbd, 0xfa, 0xdf, 0xe3, 0xf7, 0x64, 0xfe, 0xfc, 0xff, 0x26, 0xcf,
  0xf0, 0x25, 0x1c, 0xd1, 0xe1, 0xed, 0x0a, 0x37, 0x1e, 0x1b, 0x58, 0x00,
  0x0e, 0x16, 0x23, 0xf4, 0x7f, 0x06, 0x0e, 0xe9, 0xfc, 0x31, 0xd8, 0xe6,
  0x1a, 0xf1, 0x3f, 0xfe, 0x09, 0x0e, 0xfa, 0xe6, 0xfe, 0x0e, 0xbd, 0x12,
  0x0e, 0xfe, 0x98, 0xfb, 0xf7, 0xe8, 0xdc, 0x12, 0xe9, 0xc0, 0xe8, 0xfc,
  0x44, 0xe9, 0xf5, 0xec, 0xf8, 0x06, 0xd6, 0xec, 0xdc, 0x16, 0x02, 0x07,
  0x11, 0xfa, 0xd7, 0xe8, 0x08, 0xec, 0x06, 0x7f, 0xe7, 0xc0, 0xf4, 0x1e,
  0xaa, 0x16, 0xf2, 0xfe, 0x15, 0xfc, 0xeb, 0x8e, 0xef, 0x0e, 0xd8, 0xdc,
  0x08, 0xd3, 0xfe, 0xf9, 0xa0, 0xea, 0x20, 0xfd, 0xde, 0xf8, 0x13, 0xcb,
  0x1d, 0x0a, 0xd5, 0x83, 0x18, 0xe6, 0x23, 0x04, 0xf0, 0x11, 0xf8, 0xf9,
  0xb7, 0x46, 0xfa, 0xef, 0xf3, 0x04, 0xe7, 0xce, 0x13, 0xee, 0x18, 0xea,
  0x05, 0xf8, 0xe6, 0xf6, 0xb6, 0xb7, 0x13, 0xe4, 0xf1, 0x24, 0x07, 0xa6,
  0xf9, 0xda, 0x0a, 0x13, 0xcf, 0x05, 0x10, 0x1c, 0xb8, 0xee, 0x15, 0xf0,
  0xf9, 0xfd, 0x04, 0x81, 0x01, 0xef, 0x06, 0x05, 0xe8, 0xed, 0xe2, 0x0c,
  0xbe, 0xe8, 0xff, 0xed, 0xfc, 0x0d, 0x03, 0xd5, 0x1b, 0xfd, 0x06, 0x14,
  0xf0, 0xf8, 0xef, 0x02, 0xd6, 0xe2, 0xda, 0x0a, 0xdd, 0x22, 0x23, 0xe5,
  0xf6, 0x11, 0xc6, 0x0e, 0xff, 0xd8, 0xfe, 0xf9, 0x20, 0x0e, 0x01, 0x1d,
  0xdf, 0xea, 0xf9, 0xdb, 0xf4, 0x0d, 0xf5, 0x12, 0x02, 0xf1, 0xf3, 0xf3,
  0x14, 0x28, 0x17, 0x08, 0xc9, 0x16, 0xb2, 0x14, 0xd4, 0xf0, 0x81, 0x13,
  0xe8, 0x15, 0xe6, 0xf6, 0xee, 0x02, 0x08, 0xd9, 0x17, 0xc7, 0xd6, 0x1b,
  0x3e, 0xfe, 0xff, 0xff, 0x04, 0x00, 0x00, 0x00, 0x40, 0x00, 0x00, 0x00,
  0xe8, 0xff, 0xff, 0xff, 0xf3, 0xff, 0xff, 0xff, 0xfb, 0xff, 0xff, 0xff,
  0xeb, 0xff, 0xff, 0xff, 0xe8, 0xff, 0xff, 0xff, 0xd7, 0xff, 0xff, 0xff,
  0x12, 0x00, 0x00, 0x00, 0x97, 0xff, 0xff, 0xff, 0xff, 0xff, 0xff, 0xff,
  0x00, 0x00, 0x00, 0x00, 0x00, 0x00, 0x00, 0x00, 0x00, 0x00, 0x00, 0x00,
  0xe6, 0xff, 0xff, 0xff, 0xf5, 0xff, 0xff, 0xff, 0xe6, 0xff, 0xff, 0xff,
  0x03, 0x00, 0x00, 0x00, 0x8a, 0xfe, 0xff, 0xff, 0x04, 0x00, 0x00, 0x00,
  0xc0, 0x00, 0x00, 0x00, 0xf4, 0x99, 0x3c, 0x37, 0x81, 0x25, 0x1c, 0xe5,
  0x24, 0xe4, 0x8b, 0x61, 0x14, 0x7f, 0xf3, 0x1d, 0x38, 0x38, 0xfa, 0xbe,
  0xdd, 0xcc, 0x8b, 0xf9, 0xbb, 0x7f, 0xb8, 0xc5, 0x5b, 0xc4, 0xf2, 0x17,
  0xc3, 0xc4, 0xcd, 0xb8, 0xa7, 0x17, 0x2a, 0xc1, 0xcd, 0xe3, 0x35, 0xcc,
  0xb3, 0xee, 0x7f, 0x91, 0x52, 0x62, 0x0a, 0x38, 0xcd, 0x26, 0x81, 0x25,
  0xed, 0xf1, 0x81, 0xcb, 0xbd, 0x04, 0xe5, 0x81, 0x3e, 0x9b, 0xfc, 0x1a,
  0xb7, 0x58, 0x8c, 0x6e, 0x1a, 0xa5, 0xd6, 0x0c, 0xd3, 0x0e, 0x0a, 0xb3,
  0xe6, 0x00, 0x81, 0xab, 0xab, 0x4f, 0xdc, 0x05, 0x4b, 0x94, 0x84, 0xed,
  0x37, 0x1a, 0x76, 0x81, 0xb6, 0xc3, 0x30, 0xbd, 0xbe, 0x3c, 0x81, 0xe3,
  0x14, 0xcf, 0xbd, 0x20, 0x21, 0x02, 0xdd, 0x3f, 0xfd, 0xd7, 0xb5, 0xe8,
  0xb7, 0xc6, 0x19, 0x81, 0x0a, 0x81, 0x06, 0x1d, 0xba, 0xf3, 0x1b, 0xf7,
  0xfa, 0xe0, 0xe0, 0x01, 0x3c, 0x32, 0xac, 0x48, 0xe0, 0x46, 0xd9, 0x81,
  0x9b, 0x47, 0xa0, 0xbc, 0x0f, 0x46, 0xca, 0x09, 0x49, 0xb9, 0xdd, 0xe5,
  0xe9, 0xa3, 0x81, 0x6e, 0xe6, 0xf6, 0xf8, 0x81, 0x17, 0xab, 0x46, 0x35,
  0xa8, 0x07, 0xf9, 0xb6, 0x1f, 0x81, 0x17, 0x06, 0xcb, 0xd8, 0x42, 0xaf,
  0xe5, 0x58, 0x94, 0xcb, 0x34, 0xae, 0x8f, 0x0b, 0x81, 0xb0, 0x15, 0x20,
  0xc5, 0xf5, 0x44, 0xaf, 0x56, 0xff, 0xff, 0xff, 0x04, 0x00, 0x00, 0x00,
  0x08, 0x00, 0x00, 0x00, 0xff, 0xff, 0xff, 0xff, 0x40, 0x00, 0x00, 0x00,
  0x6c, 0xf1, 0xff, 0xff, 0x70, 0xf1, 0xff, 0xff, 0x0f, 0x00, 0x00, 0x00,
  0x4d, 0x4c, 0x49, 0x52, 0x20, 0x43, 0x6f, 0x6e, 0x76, 0x65, 0x72, 0x74,
  0x65, 0x64, 0x2e, 0x00, 0x01, 0x00, 0x00, 0x00, 0x14, 0x00, 0x00, 0x00,
  0x00, 0x00, 0x0e, 0x00, 0x18, 0x00, 0x14, 0x00, 0x10, 0x00, 0x0c, 0x00,
  0x08, 0x00, 0x04, 0x00, 0x0e, 0x00, 0x00, 0x00, 0x14, 0x00, 0x00, 0x00,
  0x1c, 0x00, 0x00, 0x00, 0x58, 0x02, 0x00, 0x00, 0x5c, 0x02, 0x00, 0x00,
  0x60, 0x02, 0x00, 0x00, 0x04, 0x00, 0x00, 0x00, 0x6d, 0x61, 0x69, 0x6e,
  0x00, 0x00, 0x00, 0x00, 0x08, 0x00, 0x00, 0x00, 0xf4, 0x01, 0x00, 0x00,
  0x90, 0x01, 0x00, 0x00, 0x40, 0x01, 0x00, 0x00, 0xf0, 0x00, 0x00, 0x00,
  0xc8, 0x00, 0x00, 0x00, 0x78, 0x00, 0x00, 0x00, 0x40, 0x00, 0x00, 0x00,
  0x04, 0x00, 0x00, 0x00, 0x9a, 0xfe, 0xff, 0xff, 0x1c, 0x00, 0x00, 0x00,
  0x00, 0x00, 0x00, 0x09, 0x1c, 0x00, 0x00, 0x00, 0x20, 0x00, 0x00, 0x00,
  0x04, 0x00, 0x00, 0x00, 0x00, 0x00, 0x06, 0x00, 0x08, 0x00, 0x04, 0x00,
  0x06, 0x00, 0x00, 0x00, 0x00, 0x00, 0x80, 0x3f, 0x01, 0x00, 0x00, 0x00,
  0x11, 0x00, 0x00, 0x00, 0x01, 0x00, 0x00, 0x00, 0x10, 0x00, 0x00, 0x00,
  0xd2, 0xfe, 0xff, 0xff, 0x14, 0x00, 0x00, 0x00, 0x00, 0x00, 0x00, 0x08,
  0x10, 0x00, 0x00, 0x00, 0x14, 0x00, 0x00, 0x00, 0x03, 0x00, 0x00, 0x00,
  0x38, 0xf2, 0xff, 0xff, 0x01, 0x00, 0x00, 0x00, 0x10, 0x00, 0x00, 0x00,
  0x03, 0x00, 0x00, 0x00, 0x0f, 0x00, 0x00, 0x00, 0x08, 0x00, 0x00, 0x00,
  0x09, 0x00, 0x00, 0x00, 0x06, 0xff, 0xff, 0xff, 0x1c, 0x00, 0x00, 0x00,
  0x00, 0x00, 0x00, 0x08, 0x1c, 0x00, 0x00, 0x00, 0x20, 0x00, 0x00, 0x00,
  0x03, 0x00, 0x00, 0x00, 0x00, 0x00, 0x06, 0x00, 0x08, 0x00, 0x07, 0x00,
  0x06, 0x00, 0x00, 0x00, 0x00, 0x00, 0x00, 0x01, 0x01, 0x00, 0x00, 0x00,
  0x0f, 0x00, 0x00, 0x00, 0x03, 0x00, 0x00, 0x00, 0x0e, 0x00, 0x00, 0x00,
  0x06, 0x00, 0x00, 0x00, 0x07, 0x00, 0x00, 0x00, 0x00, 0x00, 0x0a, 0x00,
  0x10, 0x00, 0x0c, 0x00, 0x08, 0x00, 0x04, 0x00, 0x0a, 0x00, 0x00, 0x00,
  0x0c, 0x00, 0x00, 0x00, 0x10, 0x00, 0x00, 0x00, 0x02, 0x00, 0x00, 0x00,
  0x01, 0x00, 0x00, 0x00, 0x0e, 0x00, 0x00, 0x00, 0x02, 0x00, 0x00, 0x00,
  0x0d, 0x00, 0x00, 0x00, 0x01, 0x00, 0x00, 0x00, 0x76, 0xff, 0xff, 0xff,
  0x24, 0x00, 0x00, 0x00, 0x00, 0x00, 0x00, 0x05, 0x30, 0x00, 0x00, 0x00,
  0x34, 0x00, 0x00, 0x00, 0x01, 0x00, 0x00, 0x00, 0x00, 0x00, 0x0e, 0x00,
  0x14, 0x00, 0x00, 0x00, 0x10, 0x00, 0x0c, 0x00, 0x08, 0x00, 0x04, 0x00,
  0x0e, 0x00, 0x00, 0x00, 0x03, 0x00, 0x00, 0x00, 0x01, 0x00, 0x00, 0x00,
  0x03, 0x00, 0x00, 0x00, 0x01, 0x00, 0x00, 0x00, 0x01, 0x00, 0x00, 0x00,
  0x0d, 0x00, 0x00, 0x00, 0x01, 0x00, 0x00, 0x00, 0x0c, 0x00, 0x00, 0x00,
  0x62, 0xff, 0xff, 0xff, 0x10, 0x00, 0x00, 0x00, 0x00, 0x00, 0x00, 0x01,
  0x18, 0x00, 0x00, 0x00, 0x1c, 0x00, 0x00, 0x00, 0x54, 0xff, 0xff, 0xff,
  0x00, 0x00, 0x00, 0x01, 0x01, 0x00, 0x00, 0x00, 0x01, 0x00, 0x00, 0x00,
  0x01, 0x00, 0x00, 0x00, 0x0c, 0x00, 0x00, 0x00, 0x03, 0x00, 0x00, 0x00,
  0x0b, 0x00, 0x00, 0x00, 0x04, 0x00, 0x00, 0x00, 0x05, 0x00, 0x00, 0x00,
  0x00, 0x00, 0x0e, 0x00, 0x1a, 0x00, 0x14, 0x00, 0x10, 0x00, 0x0c, 0x00,
  0x0b, 0x00, 0x04, 0x00, 0x0e, 0x00, 0x00, 0x00, 0x24, 0x00, 0x00, 0x00,
  0x00, 0x00, 0x00, 0x05, 0x34, 0x00, 0x00, 0x00, 0x38, 0x00, 0x00, 0x00,
  0x01, 0x00, 0x00, 0x00, 0x00, 0x00, 0x0e, 0x00, 0x18, 0x00, 0x17, 0x00,
  0x10, 0x00, 0x0c, 0x00, 0x08, 0x00, 0x04, 0x00, 0x0e, 0x00, 0x00, 0x00,
  0x03, 0x00, 0x00, 0x00, 0x03, 0x00, 0x00, 0x00, 0x03, 0x00, 0x00, 0x00,
  0x03, 0x00, 0x00, 0x00, 0x00, 0x00, 0x00, 0x01, 0x01, 0x00, 0x00, 0x00,
  0x0b, 0x00, 0x00, 0x00, 0x01, 0x00, 0x00, 0x00, 0x0a, 0x00, 0x00, 0x00,
  0x00, 0x00, 0x0e, 0x00, 0x14, 0x00, 0x00, 0x00, 0x10, 0x00, 0x0c, 0x00,
  0x0b, 0x00, 0x04, 0x00, 0x0e, 0x00, 0x00, 0x00, 0x1c, 0x00, 0x00, 0x00,
  0x00, 0x00, 0x00, 0x01, 0x24, 0x00, 0x00, 0x00, 0x28, 0x00, 0x00, 0x00,
  0x0c, 0x00, 0x10, 0x00, 0x00, 0x00, 0x0c, 0x00, 0x08, 0x00, 0x07, 0x00,
  0x0c, 0x00, 0x00, 0x00, 0x00, 0x00, 0x00, 0x01, 0x01, 0x00, 0x00, 0x00,
  0x01, 0x00, 0x00, 0x00, 0x01, 0x00, 0x00, 0x00, 0x0a, 0x00, 0x00, 0x00,
  0x03, 0x00, 0x00, 0x00, 0x00, 0x00, 0x00, 0x00, 0x02, 0x00, 0x00, 0x00,
  0x03, 0x00, 0x00, 0x00, 0x01, 0x00, 0x00, 0x00, 0x11, 0x00, 0x00, 0x00,
  0x01, 0x00, 0x00, 0x00, 0x00, 0x00, 0x00, 0x00, 0x12, 0x00, 0x00, 0x00,
  0x2c, 0x0c, 0x00, 0x00, 0xcc, 0x0b, 0x00, 0x00, 0x98, 0x0a, 0x00, 0x00,
  0x64, 0x09, 0x00, 0x00, 0x40, 0x08, 0x00, 0x00, 0x0c, 0x07, 0x00, 0x00,
  0xa8, 0x06, 0x00, 0x00, 0x2c, 0x06, 0x00, 0x00, 0xc0, 0x05, 0x00, 0x00,
  0x44, 0x05, 0x00, 0x00, 0x40, 0x04, 0x00, 0x00, 0xac, 0x03, 0x00, 0x00,
  0xb8, 0x02, 0x00, 0x00, 0x24, 0x02, 0x00, 0x00, 0xa8, 0x01, 0x00, 0x00,
  0x04, 0x01, 0x00, 0x00, 0x70, 0x00, 0x00, 0x00, 0x04, 0x00, 0x00, 0x00,
  0x30, 0xf4, 0xff, 0xff, 0x18, 0x00, 0x00, 0x00, 0x20, 0x00, 0x00, 0x00,
  0x40, 0x00, 0x00, 0x00, 0x12, 0x00, 0x00, 0x00, 0x00, 0x00, 0x00, 0x09,
  0x44, 0x00, 0x00, 0x00, 0x02, 0x00, 0x00, 0x00, 0xff, 0xff, 0xff, 0xff,
  0x09, 0x00, 0x00, 0x00, 0x14, 0xf4, 0xff, 0xff, 0x08, 0x00, 0x00, 0x00,
  0x14, 0x00, 0x00, 0x00, 0x01, 0x00, 0x00, 0x00, 0x80, 0xff, 0xff, 0xff,
  0xff, 0xff, 0xff, 0xff, 0x00, 0x00, 0x00, 0x00, 0x01, 0x00, 0x00, 0x00,
  0x00, 0x00, 0x80, 0x3b, 0x08, 0x00, 0x00, 0x00, 0x49, 0x64, 0x65, 0x6e,
  0x74, 0x69, 0x74, 0x79, 0x00, 0x00, 0x00, 0x00, 0x02, 0x00, 0x00, 0x00,
  0x01, 0x00, 0x00, 0x00, 0x09, 0x00, 0x00, 0x00, 0x98, 0xf4, 0xff, 0xff,
  0x18, 0x00, 0x00, 0x00, 0x20, 0x00, 0x00, 0x00, 0x3c, 0x00, 0x00, 0x00,
  0x11, 0x00, 0x00, 0x00, 0x00, 0x00, 0x00, 0x09, 0x6c, 0x00, 0x00, 0x00,
  0x02, 0x00, 0x00, 0x00, 0xff, 0xff, 0xff, 0xff, 0x09, 0x00, 0x00, 0x00,
  0x7c, 0xf4, 0xff, 0xff, 0x08, 0x00, 0x00, 0x00, 0x10, 0x00, 0x00, 0x00,
  0x01, 0x00, 0x00, 0x00, 0x3e, 0x00, 0x00, 0x00, 0x00, 0x00, 0x00, 0x00,
  0x01, 0x00, 0x00, 0x00, 0xf7, 0x2b, 0x6b, 0x40, 0x34, 0x00, 0x00, 0x00,
  0x73, 0x65, 0x71, 0x75, 0x65, 0x6e, 0x74, 0x69, 0x61, 0x6c, 0x2f, 0x64,
  0x65, 0x6e, 0x73, 0x65, 0x5f, 0x31, 0x2f, 0x4d, 0x61, 0x74, 0x4d, 0x75,
  0x6c, 0x3b, 0x73, 0x65, 0x71, 0x75, 0x65, 0x6e, 0x74, 0x69, 0x61, 0x6c,
  0x2f, 0x64, 0x65, 0x6e, 0x73, 0x65, 0x5f, 0x31, 0x2f, 0x42, 0x69, 0x61,
  0x73, 0x41, 0x64, 0x64, 0x00, 0x00, 0x00, 0x00, 0x02, 0x00, 0x00, 0x00,
  0x01, 0x00, 0x00, 0x00, 0x09, 0x00, 0x00, 0x00, 0x28, 0xf5, 0xff, 0xff,
  0x18, 0x00, 0x00, 0x00, 0x20, 0x00, 0x00, 0x00, 0x3c, 0x00, 0x00, 0x00,
  0x10, 0x00, 0x00, 0x00, 0x00, 0x00, 0x00, 0x09, 0x7c, 0x00, 0x00, 0x00,
  0x02, 0x00, 0x00, 0x00, 0xff, 0xff, 0xff, 0xff, 0x10, 0x00, 0x00, 0x00,
  0x0c, 0xf5, 0xff, 0xff, 0x08, 0x00, 0x00, 0x00, 0x10, 0x00, 0x00, 0x00,
  0x01, 0x00, 0x00, 0x00, 0x80, 0xff, 0xff, 0xff, 0xff, 0xff, 0xff, 0xff,
  0x01, 0x00, 0x00, 0x00, 0x31, 0x9d, 0x54, 0x3f, 0x46, 0x00, 0x00, 0x00,
  0x73, 0x65, 0x71, 0x75, 0x65, 0x6e, 0x74, 0x69, 0x61, 0x6c, 0x2f, 0x64,
  0x65, 0x6e, 0x73, 0x65, 0x2f, 0x4d, 0x61, 0x74, 0x4d, 0x75, 0x6c, 0x3b,
  0x73, 0x65, 0x71, 0x75, 0x65, 0x6e, 0x74, 0x69, 0x61, 0x6c, 0x2f, 0x64,
  0x65, 0x6e, 0x73, 0x65, 0x2f, 0x52, 0x65, 0x6c, 0x75, 0x3b, 0x73, 0x65,
  0x71, 0x75, 0x65, 0x6e, 0x74, 0x69, 0x61, 0x6c, 0x2f, 0x64, 0x65, 0x6e,
  0x73, 0x65, 0x2f, 0x42, 0x69, 0x61, 0x73, 0x41, 0x64, 0x64, 0x00, 0x00,
  0x02, 0x00, 0x00, 0x00, 0x01, 0x00, 0x00, 0x00, 0x10, 0x00, 0x00, 0x00,
  0xc8, 0xf5, 0xff, 0xff, 0x18, 0x00, 0x00, 0x00, 0x20, 0x00, 0x00, 0x00,
  0x40, 0x00, 0x00, 0x00, 0x0f, 0x00, 0x00, 0x00, 0x00, 0x00, 0x00, 0x09,
  0x54, 0x00, 0x00, 0x00, 0x02, 0x00, 0x00, 0x00, 0xff, 0xff, 0xff, 0xff,
  0x40, 0x00, 0x00, 0x00, 0xac, 0xf5, 0xff, 0xff, 0x08, 0x00, 0x00, 0x00,
  0x14, 0x00, 0x00, 0x00, 0x01, 0x00, 0x00, 0x00, 0x80, 0xff, 0xff, 0xff,
  0xff, 0xff, 0xff, 0xff, 0x00, 0x00, 0x00, 0x00, 0x01, 0x00, 0x00, 0x00,
  0x2e, 0x82, 0x6d, 0x3f, 0x1a, 0x00, 0x00, 0x00, 0x73, 0x65, 0x71, 0x75,
  0x65, 0x6e, 0x74, 0x69, 0x61, 0x6c, 0x2f, 0x66, 0x6c, 0x61, 0x74, 0x74,
  0x65, 0x6e, 0x2f, 0x52, 0x65, 0x73, 0x68, 0x61, 0x70, 0x65, 0x00, 0x00,
  0x02, 0x00, 0x00, 0x00, 0x01, 0x00, 0x00, 0x00, 0x40, 0x00, 0x00, 0x00,
  0x40, 0xf6, 0xff, 0xff, 0x18, 0x00, 0x00, 0x00, 0x28, 0x00, 0x00, 0x00,
  0x48, 0x00, 0x00, 0x00, 0x0e, 0x00, 0x00, 0x00, 0x00, 0x00, 0x00, 0x09,
  0x64, 0x00, 0x00, 0x00, 0x04, 0x00, 0x00, 0x00, 0xff, 0xff, 0xff, 0xff,
  0x02, 0x00, 0x00, 0x00, 0x02, 0x00, 0x00, 0x00, 0x10, 0x00, 0x00, 0x00,
  0x2c, 0xf6, 0xff, 0xff, 0x08, 0x00, 0x00, 0x00, 0x14, 0x00, 0x00, 0x00,
  0x01, 0x00, 0x00, 0x00, 0x80, 0xff, 0xff, 0xff, 0xff, 0xff, 0xff, 0xff,
  0x00, 0x00, 0x00, 0x00, 0x01, 0x00, 0x00, 0x00, 0x2e, 0x82, 0x6d, 0x3f,
  0x22, 0x00, 0x00, 0x00, 0x73, 0x65, 0x71, 0x75, 0x65, 0x6e, 0x74, 0x69,
  0x61, 0x6c, 0x2f, 0x6d, 0x61, 0x78, 0x5f, 0x70, 0x6f, 0x6f, 0x6c, 0x69,
  0x6e, 0x67, 0x32, 0x64, 0x5f, 0x31, 0x2f, 0x4d, 0x61, 0x78, 0x50, 0x6f,
  0x6f, 0x6c, 0x00, 0x00, 0x04, 0x00, 0x00, 0x00, 0x01, 0x00, 0x00, 0x00,
  0x02, 0x00, 0x00, 0x00, 0x02, 0x00, 0x00, 0x00, 0x10, 0x00, 0x00, 0x00,
  0xd0, 0xf6, 0xff, 0xff, 0x18, 0x00, 0x00, 0x00, 0x28, 0x00, 0x00, 0x00,
  0x48, 0x00, 0x00, 0x00, 0x0d, 0x00, 0x00, 0x00, 0x00, 0x00, 0x00, 0x09,
  0xc4, 0x00, 0x00, 0x00, 0x04, 0x00, 0x00, 0x00, 0xff, 0xff, 0xff, 0xff,
  0x06, 0x00, 0x00, 0x00, 0x02, 0x00, 0x00, 0x00, 0x10, 0x00, 0x00, 0x00,
  0xbc, 0xf6, 0xff, 0xff, 0x08, 0x00, 0x00, 0x00, 0x14, 0x00, 0x00, 0x00,
  0x01, 0x00, 0x00, 0x00, 0x80, 0xff, 0xff, 0xff, 0xff, 0xff, 0xff, 0xff,
  0x00, 0x00, 0x00, 0x00, 0x01, 0x00, 0x00, 0x00, 0x2e, 0x82, 0x6d, 0x3f,
  0x83, 0x00, 0x00, 0x00, 0x73, 0x65, 0x71, 0x75, 0x65, 0x6e, 0x74, 0x69,
  0x61, 0x6c, 0x2f, 0x63, 0x6f, 0x6e, 0x76, 0x32, 0x64, 0x5f, 0x31, 0x2f,
  0x52, 0x65, 0x6c, 0x75, 0x3b, 0x73, 0x65, 0x71, 0x75, 0x65, 0x6e, 0x74,
  0x69, 0x61, 0x6c, 0x2f, 0x63, 0x6f, 0x6e, 0x76, 0x32, 0x64, 0x5f, 0x31,
  0x2f, 0x42, 0x69, 0x61, 0x73, 0x41, 0x64, 0x64, 0x3b, 0x73, 0x65, 0x71,
  0x75, 0x65, 0x6e, 0x74, 0x69, 0x61, 0x6c, 0x2f, 0x63, 0x6f, 0x6e, 0x76,
  0x32, 0x64, 0x5f, 0x31, 0x2f, 0x43, 0x6f, 0x6e, 0x76, 0x32, 0x44, 0x3b,
  0x73, 0x65, 0x71, 0x75, 0x65, 0x6e, 0x74, 0x69, 0x61, 0x6c, 0x2f, 0x63,
  0x6f, 0x6e, 0x76, 0x32, 0x64, 0x5f, 0x31, 0x2f, 0x42, 0x69, 0x61, 0x73,
  0x41, 0x64, 0x64, 0x2f, 0x52, 0x65, 0x61, 0x64, 0x56, 0x61, 0x72, 0x69,
  0x61, 0x62, 0x6c, 0x65, 0x4f, 0x70, 0x2f, 0x72, 0x65, 0x73, 0x6f, 0x75,
  0x72, 0x63, 0x65, 0x00, 0x04, 0x00, 0x00, 0x00, 0x01, 0x00, 0x00, 0x00,
  0x06, 0x00, 0x00, 0x00, 0x02, 0x00, 0x00, 0x00, 0x10, 0x00, 0x00, 0x00,
  0xc0, 0xf7, 0xff, 0xff, 0x18, 0x00, 0x00, 0x00, 0x28, 0x00, 0x00, 0x00,
  0x48, 0x00, 0x00, 0x00, 0x0c, 0x00, 0x00, 0x00, 0x00, 0x00, 0x00, 0x09,
  0x64, 0x00, 0x00, 0x00, 0x04, 0x00, 0x00, 0x00, 0xff, 0xff, 0xff, 0xff,
  0x06, 0x00, 0x00, 0x00, 0x02, 0x00, 0x00, 0x00, 0x10, 0x00, 0x00, 0x00,
  0xac, 0xf7, 0xff, 0xff, 0x08, 0x00, 0x00, 0x00, 0x14, 0x00, 0x00, 0x00,
  0x01, 0x00, 0x00, 0x00, 0x80, 0xff, 0xff, 0xff, 0xff, 0xff, 0xff, 0xff,
  0x00, 0x00, 0x00, 0x00, 0x01, 0x00, 0x00, 0x00, 0x08, 0xaf, 0x5c, 0x3f,
  0x20, 0x00, 0x00, 0x00, 0x73, 0x65, 0x71, 0x75, 0x65, 0x6e, 0x74, 0x69,
  0x61, 0x6c, 0x2f, 0x6d, 0x61, 0x78, 0x5f, 0x70, 0x6f, 0x6f, 0x6c, 0x69,
  0x6e, 0x67, 0x32, 0x64, 0x2f, 0x4d, 0x61, 0x78, 0x50, 0x6f, 0x6f, 0x6c,
  0x00, 0x00, 0x00, 0x00, 0x04, 0x00, 0x00, 0x00, 0x01, 0x00, 0x00, 0x00,
  0x06, 0x00, 0x00, 0x00, 0x02, 0x00, 0x00, 0x00, 0x10, 0x00, 0x00, 0x00,
  0x50, 0xf8, 0xff, 0xff, 0x18, 0x00, 0x00, 0x00, 0x28, 0x00, 0x00, 0x00,
  0x44, 0x00, 0x00, 0x00, 0x0b, 0x00, 0x00, 0x00, 0x00, 0x00, 0x00, 0x09,
  0xd4, 0x00, 0x00, 0x00, 0x04, 0x00, 0x00, 0x00, 0xff, 0xff, 0xff, 0xff,
  0x14, 0x00, 0x00, 0x00, 0x06, 0x00, 0x00, 0x00, 0x10, 0x00, 0x00, 0x00,
  0x3c, 0xf8, 0xff, 0xff, 0x08, 0x00, 0x00, 0x00, 0x10, 0x00, 0x00, 0x00,
  0x01, 0x00, 0x00, 0x00, 0x80, 0xff, 0xff, 0xff, 0xff, 0xff, 0xff, 0xff,
  0x01, 0x00, 0x00, 0x00, 0x08, 0xaf, 0x5c, 0x3f, 0x96, 0x00, 0x00, 0x00,
  0x73, 0x65, 0x71, 0x75, 0x65, 0x6e, 0x74, 0x69, 0x61, 0x6c, 0x2f, 0x63,
  0x6f, 0x6e, 0x76, 0x32, 0x64, 0x2f, 0x52, 0x65, 0x6c, 0x75, 0x3b, 0x73,
  0x65, 0x71, 0x75, 0x65, 0x6e, 0x74, 0x69, 0x61, 0x6c, 0x2f, 0x63, 0x6f,
  0x6e, 0x76, 0x32, 0x64, 0x2f, 0x42, 0x69, 0x61, 0x73, 0x41, 0x64, 0x64,
  0x3b, 0x73, 0x65, 0x71, 0x75, 0x65, 0x6e, 0x74, 0x69, 0x61, 0x6c, 0x2f,
  0x63, 0x6f, 0x6e, 0x76, 0x32, 0x64, 0x5f, 0x31, 0x2f, 0x43, 0x6f, 0x6e,
  0x76, 0x32, 0x44, 0x3b, 0x73, 0x65, 0x71, 0x75, 0x65, 0x6e, 0x74, 0x69,
  0x61, 0x6c, 0x2f, 0x63, 0x6f, 0x6e, 0x76, 0x32, 0x64, 0x2f, 0x43, 0x6f,
  0x6e, 0x76, 0x32, 0x44, 0x3b, 0x73, 0x65, 0x71, 0x75, 0x65, 0x6e, 0x74,
  0x69, 0x61, 0x6c, 0x2f, 0x63, 0x6f, 0x6e, 0x76, 0x32, 0x64, 0x2f, 0x42,
  0x69, 0x61, 0x73, 0x41, 0x64, 0x64, 0x2f, 0x52, 0x65, 0x61, 0x64, 0x56,
  0x61, 0x72, 0x69, 0x61, 0x62, 0x6c, 0x65, 0x4f, 0x70, 0x2f, 0x72, 0x65,
  0x73, 0x6f, 0x75, 0x72, 0x63, 0x65, 0x00, 0x00, 0x04, 0x00, 0x00, 0x00,
  0x01, 0x00, 0x00, 0x00, 0x14, 0x00, 0x00, 0x00, 0x06, 0x00, 0x00, 0x00,
  0x10, 0x00, 0x00, 0x00, 0xa6, 0xf9, 0xff, 0xff, 0x14, 0x00, 0x00, 0x00,
  0x30, 0x00, 0x00, 0x00, 0x0a, 0x00, 0x00, 0x00, 0x00, 0x00, 0x00, 0x02,
  0x5c, 0x00, 0x00, 0x00, 0x24, 0xf9, 0xff, 0xff, 0x08, 0x00, 0x00, 0x00,
  0x10, 0x00, 0x00, 0x00, 0x01, 0x00, 0x00, 0x00, 0x00, 0x00, 0x00, 0x00,
  0x00, 0x00, 0x00, 0x00, 0x01, 0x00, 0x00, 0x00, 0xae, 0x23, 0x59, 0x3c,
  0x32, 0x00, 0x00, 0x00, 0x73, 0x65, 0x71, 0x75, 0x65, 0x6e, 0x74, 0x69,
  0x61, 0x6c, 0x2f, 0x64, 0x65, 0x6e, 0x73, 0x65, 0x5f, 0x31, 0x2f, 0x42,
  0x69, 0x61, 0x73, 0x41, 0x64, 0x64, 0x2f, 0x52, 0x65, 0x61, 0x64, 0x56,
  0x61, 0x72, 0x69, 0x61, 0x62, 0x6c, 0x65, 0x4f, 0x70, 0x2f, 0x72, 0x65,
  0x73, 0x6f, 0x75, 0x72, 0x63, 0x65, 0x00, 0x00, 0x01, 0x00, 0x00, 0x00,
  0x09, 0x00, 0x00, 0x00, 0x1e, 0xfa, 0xff, 0xff, 0x14, 0x00, 0x00, 0x00,
  0x34, 0x00, 0x00, 0x00, 0x09, 0x00, 0x00, 0x00, 0x00, 0x00, 0x00, 0x09,
  0x48, 0x00, 0x00, 0x00, 0x9c, 0xf9, 0xff, 0xff, 0x08, 0x00, 0x00, 0x00,
  0x14, 0x00, 0x00, 0x00, 0x01, 0x00, 0x00, 0x00, 0x00, 0x00, 0x00, 0x00,
  0x00, 0x00, 0x00, 0x00, 0x00, 0x00, 0x00, 0x00, 0x01, 0x00, 0x00, 0x00,
  0x72, 0xb9, 0x82, 0x3c, 0x19, 0x00, 0x00, 0x00, 0x73, 0x65, 0x71, 0x75,
  0x65, 0x6e, 0x74, 0x69, 0x61, 0x6c, 0x2f, 0x64, 0x65, 0x6e, 0x73, 0x65,
  0x5f, 0x31, 0x2f, 0x4d, 0x61, 0x74, 0x4d, 0x75, 0x6c, 0x00, 0x00, 0x00,
  0x02, 0x00, 0x00, 0x00, 0x09, 0x00, 0x00, 0x00, 0x10, 0x00, 0x00, 0x00,
  0x86, 0xfa, 0xff, 0xff, 0x14, 0x00, 0x00, 0x00, 0x30, 0x00, 0x00, 0x00,
  0x08, 0x00, 0x00, 0x00, 0x00, 0x00, 0x00, 0x02, 0x5c, 0x00, 0x00, 0x00,
  0x04, 0xfa, 0xff, 0xff, 0x08, 0x00, 0x00, 0x00, 0x10, 0x00, 0x00, 0x00,
  0x01, 0x00, 0x00, 0x00, 0x00, 0x00, 0x00, 0x00, 0x00, 0x00, 0x00, 0x00,
  0x01, 0x00, 0x00, 0x00, 0xd9, 0x16, 0xe2, 0x3b, 0x30, 0x00, 0x00, 0x00,
  0x73, 0x65, 0x71, 0x75, 0x65, 0x6e, 0x74, 0x69, 0x61, 0x6c, 0x2f, 0x64,
  0x65, 0x6e, 0x73, 0x65, 0x2f, 0x42, 0x69, 0x61, 0x73, 0x41, 0x64, 0x64,
  0x2f, 0x52, 0x65, 0x61, 0x64, 0x56, 0x61, 0x72, 0x69, 0x61, 0x62, 0x6c,
  0x65, 0x4f, 0x70, 0x2f, 0x72, 0x65, 0x73, 0x6f, 0x75, 0x72, 0x63, 0x65,
  0x00, 0x00, 0x00, 0x00, 0x01, 0x00, 0x00, 0x00, 0x10, 0x00, 0x00, 0x00,
  0xfe, 0xfa, 0xff, 0xff, 0x14, 0x00, 0x00, 0x00, 0x30, 0x00, 0x00, 0x00,
  0x07, 0x00, 0x00, 0x00, 0x00, 0x00, 0x00, 0x09, 0x40, 0x00, 0x00, 0x00,
  0x7c, 0xfa, 0xff, 0xff, 0x08, 0x00, 0x00, 0x00, 0x10, 0x00, 0x00, 0x00,
  0x01, 0x00, 0x00, 0x00, 0x00, 0x00, 0x00, 0x00, 0x00, 0x00, 0x00, 0x00,
  0x01, 0x00, 0x00, 0x00, 0x12, 0xb1, 0xf3, 0x3b, 0x17, 0x00, 0x00, 0x00,
  0x73, 0x65, 0x71, 0x75, 0x65, 0x6e, 0x74, 0x69, 0x61, 0x6c, 0x2f, 0x64,
  0x65, 0x6e, 0x73, 0x65, 0x2f, 0x4d, 0x61, 0x74, 0x4d, 0x75, 0x6c, 0x00,
  0x02, 0x00, 0x00, 0x00, 0x10, 0x00, 0x00, 0x00, 0x40, 0x00, 0x00, 0x00,
  0x5e, 0xfb, 0xff, 0xff, 0x14, 0x00, 0x00, 0x00, 0xe8, 0x00, 0x00, 0x00,
  0x06, 0x00, 0x00, 0x00, 0x00, 0x00, 0x00, 0x02, 0x14, 0x01, 0x00, 0x00,
  0xdc, 0xfa, 0xff, 0xff, 0x08, 0x00, 0x00, 0x00, 0x8c, 0x00, 0x00, 0x00,
  0x10, 0x00, 0x00, 0x00, 0x00, 0x00, 0x00, 0x00, 0x00, 0x00, 0x00, 0x00,
  0x00, 0x00, 0x00, 0x00, 0x00, 0x00, 0x00, 0x00, 0x00, 0x00, 0x00, 0x00,
  0x00, 0x00, 0x00, 0x00, 0x00, 0x00, 0x00, 0x00, 0x00, 0x00, 0x00, 0x00,
  0x00, 0x00, 0x00, 0x00, 0x00, 0x00, 0x00, 0x00, 0x00, 0x00, 0x00, 0x00,
  0x00, 0x00, 0x00, 0x00, 0x00, 0x00, 0x00, 0x00, 0x00, 0x00, 0x00, 0x00,
  0x00, 0x00, 0x00, 0x00, 0x00, 0x00, 0x00, 0x00, 0x00, 0x00, 0x00, 0x00,
  0x00, 0x00, 0x00, 0x00, 0x00, 0x00, 0x00, 0x00, 0x00, 0x00, 0x00, 0x00,
  0x00, 0x00, 0x00, 0x00, 0x00, 0x00, 0x00, 0x00, 0x00, 0x00, 0x00, 0x00,
  0x00, 0x00, 0x00, 0x00, 0x00, 0x00, 0x00, 0x00, 0x00, 0x00, 0x00, 0x00,
  0x00, 0x00, 0x00, 0x00, 0x00, 0x00, 0x00, 0x00, 0x00, 0x00, 0x00, 0x00,
  0x00, 0x00, 0x00, 0x00, 0x00, 0x00, 0x00, 0x00, 0x00, 0x00, 0x00, 0x00,
  0x00, 0x00, 0x00, 0x00, 0x10, 0x00, 0x00, 0x00, 0xc7, 0xd2, 0x84, 0x3b,
  0x41, 0x3b, 0x8c, 0x3b, 0x04, 0xa6, 0x71, 0x3b, 0xbb, 0x15, 0x8a, 0x3b,
  0x68, 0x88, 0x93, 0x3b, 0x22, 0x08, 0x7d, 0x3b, 0x3e, 0xc9, 0x98, 0x3b,
  0xcd, 0xfe, 0x48, 0x3b, 0x15, 0x56, 0x6a, 0x3b, 0xaa, 0x69, 0xb0, 0x3b,
  0x7f, 0x03, 0x8d, 0x3b, 0xc1, 0xb4, 0x3b, 0x3b, 0xf5, 0xbb, 0x94, 0x3b,
  0x34, 0x91, 0x9e, 0x3b, 0xa9, 0x50, 0xc2, 0x3b, 0x82, 0x6d, 0xc5, 0x3b,
  0x33, 0x00, 0x00, 0x00, 0x73, 0x65, 0x71, 0x75, 0x65, 0x6e, 0x74, 0x69,
  0x61, 0x6c, 0x2f, 0x63, 0x6f, 0x6e, 0x76, 0x32, 0x64, 0x5f, 0x31, 0x2f,
  0x42, 0x69, 0x61, 0x73, 0x41, 0x64, 0x64, 0x2f, 0x52, 0x65, 0x61, 0x64,
  0x56, 0x61, 0x72, 0x69, 0x61, 0x62, 0x6c, 0x65, 0x4f, 0x70, 0x2f, 0x72,
  0x65, 0x73, 0x6f, 0x75, 0x72, 0x63, 0x65, 0x00, 0x01, 0x00, 0x00, 0x00,
  0x10, 0x00, 0x00, 0x00, 0x8e, 0xfc, 0xff, 0xff, 0x14, 0x00, 0x00, 0x00,
  0xe4, 0x00, 0x00, 0x00, 0x05, 0x00, 0x00, 0x00, 0x00, 0x00, 0x00, 0x09,
  0xf8, 0x00, 0x00, 0x00, 0x0c, 0xfc, 0xff, 0xff, 0x08, 0x00, 0x00, 0x00,
  0x88, 0x00, 0x00, 0x00, 0x10, 0x00, 0x00, 0x00, 0x00, 0x00, 0x00, 0x00,
  0x00, 0x00, 0x00, 0x00, 0x00, 0x00, 0x00, 0x00, 0x00, 0x00, 0x00, 0x00,
  0x00, 0x00, 0x00, 0x00, 0x00, 0x00, 0x00, 0x00, 0x00, 0x00, 0x00, 0x00,
  0x00, 0x00, 0x00, 0x00, 0x00, 0x00, 0x00, 0x00, 0x00, 0x00, 0x00, 0x00,
  0x00, 0x00, 0x00, 0x00, 0x00, 0x00, 0x00, 0x00, 0x00, 0x00, 0x00, 0x00,
  0x00, 0x00, 0x00, 0x00, 0x00, 0x00, 0x00, 0x00, 0x00, 0x00, 0x00, 0x00,
  0x00, 0x00, 0x00, 0x00, 0x00, 0x00, 0x00, 0x00, 0x00, 0x00, 0x00, 0x00,
  0x00, 0x00, 0x00, 0x00, 0x00, 0x00, 0x00, 0x00, 0x00, 0x00, 0x00, 0x00,
  0x00, 0x00, 0x00, 0x00, 0x00, 0x00, 0x00, 0x00, 0x00, 0x00, 0x00, 0x00,
  0x00, 0x00, 0x00, 0x00, 0x00, 0x00, 0x00, 0x00, 0x00, 0x00, 0x00, 0x00,
  0x00, 0x00, 0x00, 0x00, 0x00, 0x00, 0x00, 0x00, 0x00, 0x00, 0x00, 0x00,
  0x00, 0x00, 0x00, 0x00, 0x10, 0x00, 0x00, 0x00, 0x49, 0x14, 0x9a, 0x3b,
  0x41, 0xac, 0xa2, 0x3b, 0xef, 0x28, 0x8c, 0x3b, 0xca, 0x2e, 0xa0, 0x3b,
  0x88, 0x24, 0xab, 0x3b, 0x2b, 0xc3, 0x92, 0x3b, 0x95, 0x3c, 0xb1, 0x3b,
  0x2d, 0x29, 0x69, 0x3b, 0x2f, 0xeb, 0x87, 0x3b, 0xf1, 0xa4, 0xcc, 0x3b,
  0x8b, 0x94, 0xa3, 0x3b, 0xb2, 0xbe, 0x59, 0x3b, 0x4c, 0x89, 0xac, 0x3b,
  0x62, 0xf1, 0xb7, 0x3b, 0x5c, 0x69, 0xe1, 0x3b, 0xba, 0x05, 0xe5, 0x3b,
  0x1a, 0x00, 0x00, 0x00, 0x73, 0x65, 0x71, 0x75, 0x65, 0x6e, 0x74, 0x69,
  0x61, 0x6c, 0x2f, 0x63, 0x6f, 0x6e, 0x76, 0x32, 0x64, 0x5f, 0x31, 0x2f,
  0x43, 0x6f, 0x6e, 0x76, 0x32, 0x44, 0x00, 0x00, 0x04, 0x00, 0x00, 0x00,
  0x10, 0x00, 0x00, 0x00, 0x04, 0x00, 0x00, 0x00, 0x01, 0x00, 0x00, 0x00,
  0x10, 0x00, 0x00, 0x00, 0xae, 0xfd, 0xff, 0xff, 0x14, 0x00, 0x00, 0x00,
  0xe8, 0x00, 0x00, 0x00, 0x04, 0x00, 0x00, 0x00, 0x00, 0x00, 0x00, 0x02,
  0x14, 0x01, 0x00, 0x00, 0x2c, 0xfd, 0xff, 0xff, 0x08, 0x00, 0x00, 0x00,
  0x8c, 0x00, 0x00, 0x00, 0x10, 0x00, 0x00, 0x00, 0x00, 0x00, 0x00, 0x00,
  0x00, 0x00, 0x00, 0x00, 0x00, 0x00, 0x00, 0x00, 0x00, 0x00, 0x00, 0x00,
  0x00, 0x00, 0x00, 0x00, 0x00, 0x00, 0x00, 0x00, 0x00, 0x00, 0x00, 0x00,
  0x00, 0x00, 0x00, 0x00, 0x00, 0x00, 0x00, 0x00, 0x00, 0x00, 0x00, 0x00,
  0x00, 0x00, 0x00, 0x00, 0x00, 0x00, 0x00, 0x00, 0x00, 0x00, 0x00, 0x00,
  0x00, 0x00, 0x00, 0x00, 0x00, 0x00, 0x00, 0x00, 0x00, 0x00, 0x00, 0x00,
  0x00, 0x00, 0x00, 0x00, 0x00, 0x00, 0x00, 0x00, 0x00, 0x00, 0x00, 0x00,
  0x00, 0x00, 0x00, 0x00, 0x00, 0x00, 0x00, 0x00, 0x00, 0x00, 0x00, 0x00,
  0x00, 0x00, 0x00, 0x00, 0x00, 0x00, 0x00, 0x00, 0x00, 0x00, 0x00, 0x00,
  0x00, 0x00, 0x00, 0x00, 0x00, 0x00, 0x00, 0x00, 0x00, 0x00, 0x00, 0x00,
  0x00, 0x00, 0x00, 0x00, 0x00, 0x00, 0x00, 0x00, 0x00, 0x00, 0x00, 0x00,
  0x00, 0x00, 0x00, 0x00, 0x00, 0x00, 0x00, 0x00, 0x10, 0x00, 0x00, 0x00,
  0xb6, 0xf9, 0xfb, 0x3b, 0xfe, 0x5c, 0xf7, 0x3b, 0x74, 0x28, 0xf9, 0x3b,
  0x9f, 0xa4, 0xc4, 0x3b, 0x15, 0x82, 0x02, 0x3c, 0x09, 0xdc, 0x91, 0x3b,
  0x0a, 0x5e, 0x97, 0x3c, 0xbb, 0x2c, 0xab, 0x3b, 0x9d, 0x59, 0x46, 0x3c,
  0x72, 0x8d, 0x70, 0x3c, 0x62, 0xbd, 0x4f, 0x3c, 0xbf, 0x9d, 0xfc, 0x3b,
  0x93, 0x6b, 0x0e, 0x3c, 0x43, 0x6d, 0x1d, 0x3c, 0x4c, 0xff, 0x09, 0x3c,
  0xaf, 0xa3, 0x30, 0x3c, 0x31, 0x00, 0x00, 0x00, 0x73, 0x65, 0x71, 0x75,
  0x65, 0x6e, 0x74, 0x69, 0x61, 0x6c, 0x2f, 0x63, 0x6f, 0x6e, 0x76, 0x32,
  0x64, 0x2f, 0x42, 0x69, 0x61, 0x73, 0x41, 0x64, 0x64, 0x2f, 0x52, 0x65,
  0x61, 0x64, 0x56, 0x61, 0x72, 0x69, 0x61, 0x62, 0x6c, 0x65, 0x4f, 0x70,
  0x2f, 0x72, 0x65, 0x73, 0x6f, 0x75, 0x72, 0x63, 0x65, 0x00, 0x00, 0x00,
  0x01, 0x00, 0x00, 0x00, 0x10, 0x00, 0x00, 0x00, 0xde, 0xfe, 0xff, 0xff,
  0x14, 0x00, 0x00, 0x00, 0xe4, 0x00, 0x00, 0x00, 0x03, 0x00, 0x00, 0x00,
  0x00, 0x00, 0x00, 0x09, 0xf8, 0x00, 0x00, 0x00, 0x5c, 0xfe, 0xff, 0xff,
  0x08, 0x00, 0x00, 0x00, 0x88, 0x00, 0x00, 0x00, 0x10, 0x00, 0x00, 0x00,
  0x00, 0x00, 0x00, 0x00, 0x00, 0x00, 0x00, 0x00, 0x00, 0x00, 0x00, 0x00,
  0x00, 0x00, 0x00, 0x00, 0x00, 0x00, 0x00, 0x00, 0x00, 0x00, 0x00, 0x00,
  0x00, 0x00, 0x00, 0x00, 0x00, 0x00, 0x00, 0x00, 0x00, 0x00, 0x00, 0x00,
  0x00, 0x00, 0x00, 0x00, 0x00, 0x00, 0x00, 0x00, 0x00, 0x00, 0x00, 0x00,
  0x00, 0x00, 0x00, 0x00, 0x00, 0x00, 0x00, 0x00, 0x00, 0x00, 0x00, 0x00,
  0x00, 0x00, 0x00, 0x00, 0x00, 0x00, 0x00, 0x00, 0x00, 0x00, 0x00, 0x00,
  0x00, 0x00, 0x00, 0x00, 0x00, 0x00, 0x00, 0x00, 0x00, 0x00, 0x00, 0x00,
  0x00, 0x00, 0x00, 0x00, 0x00, 0x00, 0x00, 0x00, 0x00, 0x00, 0x00, 0x00,
  0x00, 0x00, 0x00, 0x00, 0x00, 0x00, 0x00, 0x00, 0x00, 0x00, 0x00, 0x00,
  0x00, 0x00, 0x00, 0x00, 0x00, 0x00, 0x00, 0x00, 0x00, 0x00, 0x00, 0x00,
  0x00, 0x00, 0x00, 0x00, 0x00, 0x00, 0x00, 0x00, 0x10, 0x00, 0x00, 0x00,
  0xe5, 0xa9, 0x07, 0x3b, 0x32, 0x2e, 0x05, 0x3b, 0x92, 0x25, 0x06, 0x3b,
  0xd0, 0xbe, 0xd3, 0x3a, 0xff, 0x87, 0x0c, 0x3b, 0xc6, 0x0f, 0x9d, 0x3a,
  0x11, 0xfe, 0xa2, 0x3b, 0x31, 0x52, 0xb8, 0x3a, 0x5e, 0x95, 0x55, 0x3b,
  0x78, 0x83, 0x81, 0x3b, 0xbf, 0xb1, 0x5f, 0x3b, 0x36, 0x02, 0x08, 0x3b,
  0xb1, 0x5b, 0x19, 0x3b, 0x6d, 0x84, 0x29, 0x3b, 0x75, 0x98, 0x14, 0x3b,
  0x95, 0x34, 0x3e, 0x3b, 0x18, 0x00, 0x00, 0x00, 0x73, 0x65, 0x71, 0x75,
  0x65, 0x6e, 0x74, 0x69, 0x61, 0x6c, 0x2f, 0x63, 0x6f, 0x6e, 0x76, 0x32,
  0x64, 0x2f, 0x43, 0x6f, 0x6e, 0x76, 0x32, 0x44, 0x00, 0x00, 0x00, 0x00,
  0x04, 0x00, 0x00, 0x00, 0x10, 0x00, 0x00, 0x00, 0x04, 0x00, 0x00, 0x00,
  0x03, 0x00, 0x00, 0x00, 0x01, 0x00, 0x00, 0x00, 0x00, 0x00, 0x0e, 0x00,
  0x18, 0x00, 0x14, 0x00, 0x13, 0x00, 0x0c, 0x00, 0x08, 0x00, 0x04, 0x00,
  0x0e, 0x00, 0x00, 0x00, 0x18, 0x00, 0x00, 0x00, 0x18, 0x00, 0x00, 0x00,
  0x02, 0x00, 0x00, 0x00, 0x00, 0x00, 0x00, 0x02, 0x2c, 0x00, 0x00, 0x00,
  0x04, 0x00, 0x04, 0x00, 0x04, 0x00, 0x00, 0x00, 0x18, 0x00, 0x00, 0x00,
  0x73, 0x65, 0x71, 0x75, 0x65, 0x6e, 0x74, 0x69, 0x61, 0x6c, 0x2f, 0x66,
  0x6c, 0x61, 0x74, 0x74, 0x65, 0x6e, 0x2f, 0x43, 0x6f, 0x6e, 0x73, 0x74,
  0x00, 0x00, 0x00, 0x00, 0x01, 0x00, 0x00, 0x00, 0x02, 0x00, 0x00, 0x00,
  0x14, 0x00, 0x1c, 0x00, 0x18, 0x00, 0x17, 0x00, 0x10, 0x00, 0x0c, 0x00,
  0x08, 0x00, 0x00, 0x00, 0x00, 0x00, 0x04, 0x00, 0x14, 0x00, 0x00, 0x00,
  0x18, 0x00, 0x00, 0x00, 0x34, 0x00, 0x00, 0x00, 0x54, 0x00, 0x00, 0x00,
  0x01, 0x00, 0x00, 0x00, 0x00, 0x00, 0x00, 0x09, 0x5c, 0x00, 0x00, 0x00,
  0x04, 0x00, 0x00, 0x00, 0xff, 0xff, 0xff, 0xff, 0x14, 0x00, 0x00, 0x00,
  0x06, 0x00, 0x00, 0x00, 0x01, 0x00, 0x00, 0x00, 0x0c, 0x00, 0x0c, 0x00,
  0x00, 0x00, 0x00, 0x00, 0x08, 0x00, 0x04, 0x00, 0x0c, 0x00, 0x00, 0x00,
  0x08, 0x00, 0x00, 0x00, 0x14, 0x00, 0x00, 0x00, 0x01, 0x00, 0x00, 0x00,
  0x9f, 0xff, 0xff, 0xff, 0xff, 0xff, 0xff, 0xff, 0x00, 0x00, 0x00, 0x00,
  0x01, 0x00, 0x00, 0x00, 0xc7, 0xbd, 0x6d, 0x40, 0x0c, 0x00, 0x00, 0x00,
  0x63, 0x6f, 0x6e, 0x76, 0x32, 0x64, 0x5f, 0x69, 0x6e, 0x70, 0x75, 0x74,
  0x00, 0x00, 0x00, 0x00, 0x04, 0x00, 0x00, 0x00, 0x01, 0x00, 0x00, 0x00,
  0x14, 0x00, 0x00, 0x00, 0x06, 0x00, 0x00, 0x00, 0x01, 0x00, 0x00, 0x00,
  0x05, 0x00, 0x00, 0x00, 0x68, 0x00, 0x00, 0x00, 0x48, 0x00, 0x00, 0x00,
  0x38, 0x00, 0x00, 0x00, 0x18, 0x00, 0x00, 0x00, 0x04, 0x00, 0x00, 0x00,
  0xb8, 0xff, 0xff, 0xff, 0x19, 0x00, 0x00, 0x00, 0x02, 0x00, 0x00, 0x00,
  0x00, 0x00, 0x00, 0x19, 0xc8, 0xff, 0xff, 0xff, 0x09, 0x00, 0x00, 0x00,
  0x04, 0x00, 0x00, 0x00, 0x00, 0x00, 0x00, 0x09, 0x0c, 0x00, 0x0c, 0x00,
  0x0b, 0x00, 0x00, 0x00, 0x00, 0x00, 0x04, 0x00, 0x0c, 0x00, 0x00, 0x00,
  0x16, 0x00, 0x00, 0x00, 0x00, 0x00, 0x00, 0x16, 0xf0, 0xff, 0xff, 0xff,
  0x11, 0x00, 0x00, 0x00, 0x02, 0x00, 0x00, 0x00, 0x00, 0x00, 0x00, 0x11,
  0x0c, 0x00, 0x10, 0x00, 0x0f, 0x00, 0x00, 0x00, 0x08, 0x00, 0x04, 0x00,
  0x0c, 0x00, 0x00, 0x00, 0x03, 0x00, 0x00, 0x00, 0x03, 0x00, 0x00, 0x00,
  0x00, 0x00, 0x00, 0x03
};
unsigned int g_model_len = 7048;
